memory_initialization_radix=16;
memory_initialization_vector=
f64effe0,
01c2f8f9,
fb15fdfd,
fea0fed7,
fd74fe2c,
ff15fd8a,
fef7fdf9,
ff25005d,
fef6fd8b,
fd5effdb,
fdc9fdeb,
00190024,
0056fff6,
000e002a,
0019fff9,
00040011,
ffed0002,
ffe3003c,
00170025,
0009fffa,
ffd70048,
0049000a,
0011ffe9,
000b003e,
00280047,
002f0000,
003e0015,
005bffe7,
004b0016,
ffea0015,
ffe3001a,
0001000e,
0035fff5,
0006fff1,
004a0021,
fff9fff5,
fff1fffb,
0052ffd9,
00060013,
0031fff0,
fff8ffc7,
0029ffe3,
ffe8fffc,
ffeb000f,
ffd3ffda,
00020012,
ffe4ffe1,
008afff5,
003c0024,
000b0000,
ffd70011,
ffe6000f,
003f0035,
004b0000,
0016fffa,
000bffcc,
ffeffff9,
fff9fff4,
ffe80059,
0044fff0,
0013003e,
00390039,
002a0018,
ffecfff4,
fff7fff1,
fffbffd4,
0000ffef,
00160033,
000f0017,
0021fff4,
0053ffe8,
00210022,
004d006c,
00540027,
001d0072,
ffe8003e,
0062ffb7,
0051fff6,
005b003b,
001a0027,
0001001e,
005afffc,
001dffed,
ffe6001f,
00200003,
fff5ffef,
fffd0011,
fff70075,
000b007f,
0019ffe0,
002d0071,
00200057,
fff7000a,
00270031,
000afffb,
0024ffc5,
0006ffde,
fff2fff7,
fff2002f,
0055fffe,
ffe40012,
00040031,
ffef0028,
0027ffdc,
ffd40014,
0016008d,
ffe60067,
0072001a,
000b0075,
002d002e,
00120059,
002b0004,
0018004a,
00000000,
ff8100cf,
ffacff93,
004000ed,
fefcffa2,
007e0028;
